{
  "version": "1.0",
  "truncation": null,
  "padding": null,
  "added_tokens": [
    {
      "id": 0,
      "content": "[UNK]",
      "single_word": false,
      "lstrip": false,
      "rstrip": false,
      "normalized": false,
      "special": true
    },
    {
      "id": 1,
      "content": "[PAD]",
      "single_word": false,
      "lstrip": false,
      "rstrip": false,
      "normalized": false,
      "special": true
    },
    {
      "id": 2,
      "content": "[BOS]",
      "single_word": false,
      "lstrip": false,
      "rstrip": false,
      "normalized": false,
      "special": true
    },
    {
      "id": 3,
      "content": "[EOS]",
      "single_word": false,
      "lstrip": false,
      "rstrip": false,
      "normalized": false,
      "special": true
    }
  ],
  "normalizer": null,
  "pre_tokenizer": {
    "type": "Whitespace"
  },
  "post_processor": null,
  "decoder": null,
  "model": {
    "type": "BPE",
    "dropout": null,
    "unk_token": "[UNK]",
    "continuing_subword_prefix": null,
    "end_of_word_suffix": null,
    "fuse_unk": false,
    "byte_fallback": false,
    "ignore_merges": false,
    "vocab": {
      "[UNK]": 0,
      "[PAD]": 1,
      "[BOS]": 2,
      "[EOS]": 3,
      ",": 4,
      ".": 5,
      "A": 6,
      "B": 7,
      "D": 8,
      "E": 9,
      "F": 10,
      "I": 11,
      "L": 12,
      "P": 13,
      "T": 14,
      "W": 15,
      "a": 16,
      "b": 17,
      "c": 18,
      "d": 19,
      "e": 20,
      "f": 21,
      "g": 22,
      "h": 23,
      "i": 24,
      "j": 25,
      "k": 26,
      "l": 27,
      "m": 28,
      "n": 29,
      "o": 30,
      "p": 31,
      "q": 32,
      "r": 33,
      "s": 34,
      "t": 35,
      "u": 36,
      "v": 37,
      "w": 38,
      "x": 39,
      "y": 40,
      "z": 41,
      "in": 42,
      "th": 43,
      "the": 44,
      "en": 45,
      "an": 46,
      "re": 47,
      "to": 48,
      "ing": 49,
      "er": 50,
      "se": 51,
      "at": 52,
      "ken": 53,
      "mo": 54,
      "token": 55,
      "al": 56,
      "on": 57,
      "de": 58,
      "es": 59,
      "is": 60,
      "mode": 61,
      "model": 62,
      "ra": 63,
      "ar": 64,
      "ex": 65,
      "ic": 66,
      "le": 67,
      "st": 68,
      "and": 69,
      "tokens": 70,
      "dat": 71,
      "pre": 72,
      "or": 73,
      "ining": 74,
      "all": 75,
      "raining": 76,
      "data": 77,
      "Th": 78,
      "are": 79,
      "dic": 80,
      "ed": 81,
      "fu": 82,
      "ge": 83,
      "ion": 84,
      "me": 85,
      "ne": 86,
      "ts": 87,
      "ter": 88,
      "training": 89,
      "ext": 90,
      "predic": 91,
      "ful": 92,
      "predict": 93,
      "ces": 94,
      "fi": 95,
      "iz": 96,
      "qu": 97,
      "set": 98,
      "arn": 99,
      "learn": 100,
      "dataset": 101,
      "The": 102,
      "quen": 103,
      "age": 104,
      "ce": 105,
      "can": 106,
      "con": 107,
      "do": 108,
      "gu": 109,
      "mp": 110,
      "no": 111,
      "of": 112,
      "om": 113,
      "ow": 114,
      "text": 115,
      "um": 116,
      "ur": 117,
      "use": 118,
      "wor": 119,
      "angu": 120,
      "sequen": 121,
      "tokeniz": 122,
      "mean": 123,
      "not": 124,
      "useful": 125,
      "anguage": 126,
      "Ds": 127,
      "If": 128,
      "It": 129,
      "IDs": 130,
      "ac": 131,
      "ad": 132,
      "ai": 133,
      "ay": 134,
      "amp": 135,
      "be": 136,
      "ds": 137,
      "ew": 138,
      "for": 139,
      "few": 140,
      "gh": 141,
      "gth": 142,
      "il": 143,
      "ix": 144,
      "ith": 145,
      "ke": 146,
      "lo": 147,
      "ly": 148,
      "len": 149,
      "lic": 150,
      "language": 151,
      "mall": 152,
      "ns": 153,
      "next": 154,
      "pe": 155,
      "pi": 156,
      "pt": 157,
      "pu": 158,
      "pat": 159,
      "ro": 160,
      "ss": 161,
      "su": 162,
      "six": 163,
      "small": 164,
      "ty": 165,
      "tin": 166,
      "tar": 167,
      "ver": 168,
      "we": 169,
      "wh": 170,
      "into": 171,
      "inpu": 172,
      "sees": 173,
      "ation": 174,
      "one": 175,
      "only": 176,
      "ded": 177,
      "exce": 178,
      "get": 179,
      "ions": 180,
      "need": 181,
      "terns": 182,
      "predicting": 183,
      "predictions": 184,
      "does": 185,
      "words": 186,
      "sequences": 187,
      "tokenizer": 188,
      "air": 189,
      "ample": 190,
      "loss": 191,
      "length": 192,
      "patterns": 193,
      "sixty": 194,
      "target": 195,
      "input": 196,
      "except": 197,
      "Af": 198,
      "As": 199,
      "At": 200,
      "By": 201,
      "Dur": 202,
      "En": 203,
      "For": 204,
      "Low": 205,
      "Language": 206,
      "Pair": 207,
      "To": 208,
      "Training": 209,
      "With": 210,
      "ain": 211,
      "ast": 212,
      "ake": 213,
      "asu": 214,
      "bu": 215,
      "by": 216,
      "ber": 217,
      "ch": 218,
      "co": 219,
      "cle": 220,
      "care": 221,
      "com": 222,
      "cum": 223,
      "di": 224,
      "ding": 225,
      "der": 226,
      "eces": 227,
      "eac": 228,
      "eded": 229,
      "fo": 230,
      "fr": 231,
      "fre": 232,
      "gin": 233,
      "ger": 234,
      "ges": 235,
      "hra": 236,
      "hand": 237,
      "how": 238,
      "hum": 239,
      "if": 240,
      "it": 241,
      "ies": 242,
      "ile": 243,
      "idat": 244,
      "its": 245,
      "imp": 246,
      "igh": 247,
      "ike": 248,
      "ju": 249,
      "ked": 250,
      "lin": 251,
      "ling": 252,
      "lar": 253,
      "lter": 254,
      "last": 255,
      "like": 256,
      "mu": 257,
      "man": 258,
      "mer": 259,
      "may": 260,
      "make": 261,
      "ning": 262,
      "num": 263,
      "nder": 264,
      "ou": 265,
      "pac": 266,
      "plic": 267,
      "pro": 268,
      "pair": 269,
      "phra": 270,
      "ron": 271,
      "rst": 272,
      "rand": 273,
      "riz": 274,
      "ries": 275,
      "sen": 276,
      "sing": 277,
      "slic": 278,
      "sample": 279,
      "te": 280,
      "ting": 281,
      "tes": 282,
      "tic": 283,
      "tter": 284,
      "twor": 285,
      "tain": 286,
      "tries": 287,
      "ues": 288,
      "usu": 289,
      "under": 290,
      "uplic": 291,
      "using": 292,
      "ve": 293,
      "ving": 294,
      "val": 295,
      "way": 296,
      "with": 297,
      "wron": 298,
      "xed": 299,
      "that": 300,
      "thou": 301,
      "them": 302,
      "ents": 303,
      "res": 304,
      "real": 305,
      "repre": 306,
      "read": 307,
      "repe": 308,
      "ingful": 309,
      "ses": 310,
      "atis": 311,
      "ated": 312,
      "mon": 313,
      "more": 314,
      "most": 315,
      "moriz": 316,
      "alway": 317,
      "althou": 318,
      "almost": 319,
      "models": 320,
      "raw": 321,
      "rare": 322,
      "arts": 323,
      "example": 324,
      "sts": 325,
      "stand": 326,
      "stil": 327,
      "statis": 328,
      "starts": 329,
      "pretraining": 330,
      "ally": 331,
      "allow": 332,
      "This": 333,
      "measu": 334,
      "memoriz": 335,
      "neur": 336,
      "needed": 337,
      "networ": 338,
      "cess": 339,
      "filter": 340,
      "first": 341,
      "five": 342,
      "fixed": 343,
      "learns": 344,
      "These": 345,
      "quent": 346,
      "cannot": 347,
      "contin": 348,
      "conver": 349,
      "contain": 350,
      "docum": 351,
      "sequence": 352,
      "tokenization": 353,
      "means": 354,
      "meaningful": 355,
      "adju": 356,
      "begin": 357,
      "better": 358,
      "fewer": 359,
      "ild": 360,
      "pelin": 361,
      "pieces": 362,
      "pipelin": 363,
      "roving": 364,
      "tiny": 365,
      "verse": 366,
      "weigh": 367,
      "when": 368,
      "while": 369,
      "deduplic": 370,
      "needs": 371,
      "After": 372,
      "Byte": 373,
      "During": 374,
      "Enco": 375,
      "Lower": 376,
      "build": 377,
      "bers": 378,
      "clean": 379,
      "careful": 380,
      "common": 381,
      "diverse": 382,
      "each": 383,
      "four": 384,
      "from": 385,
      "frequent": 386,
      "handling": 387,
      "human": 388,
      "idation": 389,
      "improving": 390,
      "larger": 391,
      "much": 392,
      "many": 393,
      "merges": 394,
      "numbers": 395,
      "packed": 396,
      "process": 397,
      "pairs": 398,
      "phrases": 399,
      "random": 400,
      "sent": 401,
      "slice": 402,
      "testing": 403,
      "tical": 404,
      "usually": 405,
      "understand": 406,
      "validation": 407,
      "wrong": 408,
      "represent": 409,
      "reading": 410,
      "repeated": 411,
      "always": 412,
      "although": 413,
      "still": 414,
      "statistical": 415,
      "allows": 416,
      "measures": 417,
      "memorize": 418,
      "neural": 419,
      "network": 420,
      "filtering": 421,
      "continues": 422,
      "converts": 423,
      "contains": 424,
      "documents": 425,
      "adjusts": 426,
      "beginning": 427,
      "pipeline": 428,
      "weights": 429,
      "deduplication": 430,
      "Encoding": 431
    },
    "merges": [
      "i n",
      "t h",
      "th e",
      "e n",
      "a n",
      "r e",
      "t o",
      "in g",
      "e r",
      "s e",
      "a t",
      "k en",
      "m o",
      "to ken",
      "a l",
      "o n",
      "d e",
      "e s",
      "i s",
      "mo de",
      "mode l",
      "r a",
      "a r",
      "e x",
      "i c",
      "l e",
      "s t",
      "an d",
      "token s",
      "d at",
      "p re",
      "o r",
      "in ing",
      "al l",
      "ra ining",
      "dat a",
      "T h",
      "a re",
      "d ic",
      "e d",
      "f u",
      "g e",
      "i on",
      "m e",
      "n e",
      "t s",
      "t er",
      "t raining",
      "ex t",
      "pre dic",
      "fu l",
      "predic t",
      "c es",
      "f i",
      "i z",
      "q u",
      "se t",
      "ar n",
      "le arn",
      "data set",
      "Th e",
      "qu en",
      "a ge",
      "c e",
      "c an",
      "c on",
      "d o",
      "g u",
      "m p",
      "n o",
      "o f",
      "o m",
      "o w",
      "t ext",
      "u m",
      "u r",
      "u se",
      "w or",
      "an gu",
      "se quen",
      "token iz",
      "me an",
      "no t",
      "use ful",
      "angu age",
      "D s",
      "I f",
      "I t",
      "I Ds",
      "a c",
      "a d",
      "a i",
      "a y",
      "a mp",
      "b e",
      "d s",
      "e w",
      "f or",
      "f ew",
      "g h",
      "g th",
      "i l",
      "i x",
      "i th",
      "k e",
      "l o",
      "l y",
      "l en",
      "l ic",
      "l anguage",
      "m all",
      "n s",
      "n ext",
      "p e",
      "p i",
      "p t",
      "p u",
      "p at",
      "r o",
      "s s",
      "s u",
      "s ix",
      "s mall",
      "t y",
      "t in",
      "t ar",
      "v er",
      "w e",
      "w h",
      "in to",
      "in pu",
      "se es",
      "at ion",
      "on e",
      "on ly",
      "de d",
      "ex ce",
      "ge t",
      "ion s",
      "ne ed",
      "ter ns",
      "predict ing",
      "predict ions",
      "do es",
      "wor ds",
      "sequen ces",
      "tokeniz er",
      "ai r",
      "amp le",
      "lo ss",
      "len gth",
      "pat terns",
      "six ty",
      "tar get",
      "inpu t",
      "exce pt",
      "A f",
      "A s",
      "A t",
      "B y",
      "D ur",
      "E n",
      "F or",
      "L ow",
      "L anguage",
      "P air",
      "T o",
      "T raining",
      "W ith",
      "a in",
      "a st",
      "a ke",
      "a su",
      "b u",
      "b y",
      "b er",
      "c h",
      "c o",
      "c le",
      "c are",
      "c om",
      "c um",
      "d i",
      "d ing",
      "d er",
      "e ces",
      "e ac",
      "e ded",
      "f o",
      "f r",
      "f re",
      "g in",
      "g er",
      "g es",
      "h ra",
      "h and",
      "h ow",
      "h um",
      "i f",
      "i t",
      "i es",
      "i le",
      "i dat",
      "i ts",
      "i mp",
      "i gh",
      "i ke",
      "j u",
      "k ed",
      "l in",
      "l ing",
      "l ar",
      "l ter",
      "l ast",
      "l ike",
      "m u",
      "m an",
      "m er",
      "m ay",
      "m ake",
      "n ing",
      "n um",
      "n der",
      "o u",
      "p ac",
      "p lic",
      "p ro",
      "p air",
      "p hra",
      "r on",
      "r st",
      "r and",
      "r iz",
      "r ies",
      "s en",
      "s ing",
      "s lic",
      "s ample",
      "t e",
      "t ing",
      "t es",
      "t ic",
      "t ter",
      "t wor",
      "t ain",
      "t ries",
      "u es",
      "u su",
      "u nder",
      "u plic",
      "u sing",
      "v e",
      "v ing",
      "v al",
      "w ay",
      "w ith",
      "w ron",
      "x ed",
      "th at",
      "th ou",
      "the m",
      "en ts",
      "re s",
      "re al",
      "re pre",
      "re ad",
      "re pe",
      "ing ful",
      "se s",
      "at is",
      "at ed",
      "mo n",
      "mo re",
      "mo st",
      "mo riz",
      "al way",
      "al thou",
      "al most",
      "model s",
      "ra w",
      "ra re",
      "ar ts",
      "ex ample",
      "st s",
      "st and",
      "st il",
      "st atis",
      "st arts",
      "pre training",
      "all y",
      "all ow",
      "Th is",
      "me asu",
      "me moriz",
      "ne ur",
      "ne eded",
      "ne twor",
      "ces s",
      "fi lter",
      "fi rst",
      "fi ve",
      "fi xed",
      "learn s",
      "The se",
      "quen t",
      "can not",
      "con tin",
      "con ver",
      "con tain",
      "do cum",
      "sequen ce",
      "tokeniz ation",
      "mean s",
      "mean ingful",
      "ad ju",
      "be gin",
      "be tter",
      "few er",
      "il d",
      "pe lin",
      "pi eces",
      "pi pelin",
      "ro ving",
      "tin y",
      "ver se",
      "we igh",
      "wh en",
      "wh ile",
      "ded uplic",
      "need s",
      "Af ter",
      "By te",
      "Dur ing",
      "En co",
      "Low er",
      "bu ild",
      "ber s",
      "cle an",
      "care ful",
      "com mon",
      "di verse",
      "eac h",
      "fo ur",
      "fr om",
      "fre quent",
      "hand ling",
      "hum an",
      "idat ion",
      "imp roving",
      "lar ger",
      "mu ch",
      "man y",
      "mer ges",
      "num bers",
      "pac ked",
      "pro cess",
      "pair s",
      "phra ses",
      "rand om",
      "sen t",
      "slic e",
      "tes ting",
      "tic al",
      "usu ally",
      "under stand",
      "val idation",
      "wron g",
      "repre sent",
      "read ing",
      "repe ated",
      "alway s",
      "althou gh",
      "stil l",
      "statis tical",
      "allow s",
      "measu res",
      "memoriz e",
      "neur al",
      "networ k",
      "filter ing",
      "contin ues",
      "conver ts",
      "contain s",
      "docum ents",
      "adju sts",
      "begin ning",
      "pipelin e",
      "weigh ts",
      "deduplic ation",
      "Enco ding"
    ]
  }
}